
// This is a TensorFlow Lite model file that has been converted into a C data
// array using the tensorflow.lite.util.convert_bytes_to_c_source() function.
// This form is useful for compiling into a binary for devices that don't have a
// file system.

#include "gesture_model.h"
// We need to keep the data array aligned on some architectures.
#ifdef __has_attribute
#define HAVE_ATTRIBUTE(x) __has_attribute(x)
#else
#define HAVE_ATTRIBUTE(x) 0
#endif
#if HAVE_ATTRIBUTE(aligned) || (defined(__GNUC__) && !defined(__clang__))
#define DATA_ALIGN_ATTRIBUTE __attribute__((aligned(4)))
#else
#define DATA_ALIGN_ATTRIBUTE
#endif

const unsigned char gesture_model[] DATA_ALIGN_ATTRIBUTE = {
    0x1c, 0x00, 0x00, 0x00, 0x54, 0x46, 0x4c, 0x33, 0x14, 0x00, 0x20, 0x00, 0x1c,
    0x00, 0x18, 0x00, 0x14, 0x00, 0x10, 0x00, 0x0c, 0x00, 0x00, 0x00, 0x08, 0x00,
    0x04, 0x00, 0x14, 0x00, 0x00, 0x00, 0x1c, 0x00, 0x00, 0x00, 0x94, 0x00, 0x00,
    0x00, 0xec, 0x00, 0x00, 0x00, 0x8c, 0x15, 0x00, 0x00, 0x9c, 0x15, 0x00, 0x00,
    0x74, 0x1b, 0x00, 0x00, 0x03, 0x00, 0x00, 0x00, 0x01, 0x00, 0x00, 0x00, 0x10,
    0x00, 0x00, 0x00, 0x00, 0x00, 0x0a, 0x00, 0x10, 0x00, 0x0c, 0x00, 0x08, 0x00,
    0x04, 0x00, 0x0a, 0x00, 0x00, 0x00, 0x0c, 0x00, 0x00, 0x00, 0x1c, 0x00, 0x00,
    0x00, 0x38, 0x00, 0x00, 0x00, 0x0f, 0x00, 0x00, 0x00, 0x73, 0x65, 0x72, 0x76,
    0x69, 0x6e, 0x67, 0x5f, 0x64, 0x65, 0x66, 0x61, 0x75, 0x6c, 0x74, 0x00, 0x01,
    0x00, 0x00, 0x00, 0x04, 0x00, 0x00, 0x00, 0x94, 0xff, 0xff, 0xff, 0x0a, 0x00,
    0x00, 0x00, 0x04, 0x00, 0x00, 0x00, 0x07, 0x00, 0x00, 0x00, 0x64, 0x65, 0x6e,
    0x73, 0x65, 0x5f, 0x38, 0x00, 0x01, 0x00, 0x00, 0x00, 0x04, 0x00, 0x00, 0x00,
    0x56, 0xea, 0xff, 0xff, 0x04, 0x00, 0x00, 0x00, 0x0d, 0x00, 0x00, 0x00, 0x64,
    0x65, 0x6e, 0x73, 0x65, 0x5f, 0x36, 0x5f, 0x69, 0x6e, 0x70, 0x75, 0x74, 0x00,
    0x00, 0x00, 0x02, 0x00, 0x00, 0x00, 0x34, 0x00, 0x00, 0x00, 0x04, 0x00, 0x00,
    0x00, 0xdc, 0xff, 0xff, 0xff, 0x0d, 0x00, 0x00, 0x00, 0x04, 0x00, 0x00, 0x00,
    0x13, 0x00, 0x00, 0x00, 0x43, 0x4f, 0x4e, 0x56, 0x45, 0x52, 0x53, 0x49, 0x4f,
    0x4e, 0x5f, 0x4d, 0x45, 0x54, 0x41, 0x44, 0x41, 0x54, 0x41, 0x00, 0x08, 0x00,
    0x0c, 0x00, 0x08, 0x00, 0x04, 0x00, 0x08, 0x00, 0x00, 0x00, 0x0c, 0x00, 0x00,
    0x00, 0x04, 0x00, 0x00, 0x00, 0x13, 0x00, 0x00, 0x00, 0x6d, 0x69, 0x6e, 0x5f,
    0x72, 0x75, 0x6e, 0x74, 0x69, 0x6d, 0x65, 0x5f, 0x76, 0x65, 0x72, 0x73, 0x69,
    0x6f, 0x6e, 0x00, 0x0e, 0x00, 0x00, 0x00, 0x9c, 0x14, 0x00, 0x00, 0x94, 0x14,
    0x00, 0x00, 0x7c, 0x14, 0x00, 0x00, 0x60, 0x14, 0x00, 0x00, 0x28, 0x14, 0x00,
    0x00, 0x58, 0x01, 0x00, 0x00, 0xd0, 0x00, 0x00, 0x00, 0xa8, 0x00, 0x00, 0x00,
    0xa0, 0x00, 0x00, 0x00, 0x98, 0x00, 0x00, 0x00, 0x90, 0x00, 0x00, 0x00, 0x88,
    0x00, 0x00, 0x00, 0x68, 0x00, 0x00, 0x00, 0x04, 0x00, 0x00, 0x00, 0x0a, 0xeb,
    0xff, 0xff, 0x04, 0x00, 0x00, 0x00, 0x54, 0x00, 0x00, 0x00, 0x0c, 0x00, 0x00,
    0x00, 0x08, 0x00, 0x0e, 0x00, 0x08, 0x00, 0x04, 0x00, 0x08, 0x00, 0x00, 0x00,
    0x10, 0x00, 0x00, 0x00, 0x24, 0x00, 0x00, 0x00, 0x00, 0x00, 0x06, 0x00, 0x08,
    0x00, 0x04, 0x00, 0x06, 0x00, 0x00, 0x00, 0x04, 0x00, 0x00, 0x00, 0x00, 0x00,
    0x00, 0x00, 0x00, 0x00, 0x0a, 0x00, 0x10, 0x00, 0x0c, 0x00, 0x08, 0x00, 0x04,
    0x00, 0x0a, 0x00, 0x00, 0x00, 0x02, 0x00, 0x00, 0x00, 0x02, 0x00, 0x00, 0x00,
    0x04, 0x00, 0x00, 0x00, 0x06, 0x00, 0x00, 0x00, 0x32, 0x2e, 0x31, 0x32, 0x2e,
    0x30, 0x00, 0x00, 0x6a, 0xeb, 0xff, 0xff, 0x04, 0x00, 0x00, 0x00, 0x10, 0x00,
    0x00, 0x00, 0x31, 0x2e, 0x35, 0x2e, 0x30, 0x00, 0x00, 0x00, 0x00, 0x00, 0x00,
    0x00, 0x00, 0x00, 0x00, 0x00, 0x5c, 0xe6, 0xff, 0xff, 0x60, 0xe6, 0xff, 0xff,
    0x64, 0xe6, 0xff, 0xff, 0x68, 0xe6, 0xff, 0xff, 0x96, 0xeb, 0xff, 0xff, 0x04,
    0x00, 0x00, 0x00, 0x18, 0x00, 0x00, 0x00, 0x55, 0xa1, 0x99, 0x3e, 0x3d, 0x37,
    0x8e, 0xbe, 0x08, 0x3f, 0x66, 0xbe, 0x94, 0x68, 0x78, 0x3f, 0x2c, 0x4b, 0x89,
    0x3f, 0x1f, 0x62, 0xa5, 0xbf, 0xba, 0xeb, 0xff, 0xff, 0x04, 0x00, 0x00, 0x00,
    0x78, 0x00, 0x00, 0x00, 0x32, 0x24, 0x59, 0xbf, 0xae, 0x7e, 0x82, 0x37, 0x94,
    0x4c, 0xc7, 0xb8, 0x1c, 0xa4, 0x12, 0xbe, 0x5b, 0x06, 0xfe, 0x3e, 0x35, 0xea,
    0xa7, 0x3c, 0xad, 0x7e, 0x60, 0x38, 0x82, 0x94, 0x6f, 0x3e, 0x01, 0xfc, 0x04,
    0x3f, 0xd0, 0xa7, 0x9b, 0x3d, 0x72, 0x33, 0x97, 0xbe, 0x94, 0x64, 0x97, 0xb8,
    0xa4, 0xff, 0x2c, 0xb9, 0x1d, 0x10, 0x66, 0x38, 0x23, 0xcc, 0x95, 0x3e, 0x16,
    0xc2, 0xcd, 0x37, 0x0c, 0x52, 0xb5, 0xb8, 0xba, 0x8b, 0x89, 0x3e, 0x67, 0x12,
    0x37, 0x3e, 0x98, 0x68, 0x86, 0xba, 0x86, 0xc4, 0x24, 0x3f, 0xd1, 0xf9, 0xa5,
    0x3e, 0x98, 0x35, 0x21, 0xb7, 0x30, 0x2b, 0x04, 0x3e, 0x83, 0x68, 0x34, 0xbf,
    0x36, 0xf8, 0x4c, 0xbe, 0x74, 0x5a, 0x4d, 0xb9, 0xfe, 0x3b, 0x74, 0xbe, 0x59,
    0xbe, 0x5e, 0xbd, 0x2a, 0x37, 0x3e, 0x3f, 0x3e, 0xec, 0xff, 0xff, 0x04, 0x00,
    0x00, 0x00, 0xc0, 0x12, 0x00, 0x00, 0xef, 0xef, 0x55, 0x3e, 0x05, 0x66, 0x31,
    0xbe, 0x84, 0x2c, 0xa1, 0xbd, 0x3f, 0x62, 0xe3, 0xbb, 0x95, 0x03, 0x71, 0xbe,
    0x54, 0xaf, 0x0e, 0xbd, 0x6d, 0x58, 0x0c, 0xbe, 0x7f, 0x4e, 0x90, 0x3d, 0xa6,
    0xa1, 0x8e, 0x3e, 0x16, 0x40, 0x40, 0xbe, 0xe9, 0x71, 0x93, 0x3d, 0x97, 0x7f,
    0x8f, 0x3d, 0xc4, 0x77, 0x5e, 0x3e, 0x34, 0x2c, 0xa2, 0x3d, 0xc9, 0x25, 0x9e,
    0x3e, 0x49, 0xaf, 0x53, 0x3e, 0xc3, 0x31, 0x17, 0x3c, 0x9a, 0x83, 0x5a, 0x3e,
    0x3e, 0xda, 0x65, 0xbb, 0xff, 0xfb, 0xb2, 0xbd, 0xa1, 0x52, 0xd8, 0x3d, 0xb5,
    0x65, 0x34, 0x3e, 0x87, 0x1d, 0xed, 0x3a, 0x64, 0x94, 0x98, 0xbd, 0x79, 0xda,
    0x2f, 0xbe, 0xc7, 0x55, 0x1d, 0xbe, 0xb3, 0x86, 0x26, 0x3e, 0xe0, 0x94, 0x8e,
    0x3d, 0xe1, 0xcc, 0x80, 0xbe, 0xb8, 0xce, 0xdb, 0x3d, 0x7a, 0x74, 0xe8, 0x3c,
    0xe5, 0x32, 0xf0, 0x3d, 0xa9, 0x24, 0x46, 0x3e, 0x37, 0x31, 0x29, 0x3e, 0x52,
    0xb2, 0x65, 0xbe, 0x71, 0x1e, 0x67, 0x3e, 0x43, 0x09, 0x3e, 0x3e, 0x50, 0xa8,
    0x93, 0xbd, 0x25, 0x43, 0x96, 0x3e, 0x39, 0x31, 0xcc, 0xbb, 0xf7, 0x1a, 0x1a,
    0xbe, 0xad, 0x20, 0x19, 0xbd, 0x4e, 0xeb, 0x36, 0x3e, 0xed, 0x3d, 0x49, 0xbe,
    0x24, 0xb3, 0x9a, 0x3e, 0x35, 0xc4, 0x39, 0x3e, 0x70, 0xbd, 0x58, 0xbc, 0x44,
    0x3d, 0xa6, 0x3e, 0xb6, 0x84, 0x9d, 0xbd, 0x55, 0xc3, 0xbc, 0x3d, 0x1b, 0xdc,
    0x1c, 0xbb, 0xe2, 0x79, 0xfc, 0xbc, 0x86, 0x1c, 0x42, 0xbe, 0x7b, 0xe0, 0x81,
    0x3e, 0xb7, 0x8f, 0x2b, 0x3e, 0x45, 0x3c, 0x80, 0xbe, 0xa8, 0xd0, 0x9e, 0x3e,
    0x5b, 0xf3, 0xad, 0x3d, 0xfc, 0x16, 0x6d, 0xbe, 0xb4, 0xd8, 0x19, 0xbd, 0x2e,
    0x2c, 0x3f, 0x3e, 0xac, 0x49, 0x0e, 0x3e, 0xdf, 0x9a, 0x16, 0x3e, 0xa6, 0xeb,
    0x47, 0xbe, 0x39, 0xaa, 0x2f, 0xbd, 0xbb, 0x0b, 0x05, 0xbd, 0xde, 0x08, 0x5c,
    0x3d, 0xe3, 0xcc, 0x37, 0xbe, 0x72, 0x6e, 0x70, 0x3e, 0x42, 0x5b, 0xcb, 0xbd,
    0x59, 0xa5, 0x9a, 0xbd, 0x84, 0xe0, 0x7a, 0x3d, 0x85, 0xb4, 0x35, 0x3d, 0x3b,
    0xa5, 0x45, 0xbe, 0x8b, 0x7a, 0x19, 0x3e, 0xf2, 0xb1, 0x53, 0xbd, 0x37, 0xad,
    0x4a, 0xbe, 0x95, 0x50, 0x9c, 0x3e, 0x90, 0x5e, 0x11, 0xbe, 0xa0, 0x2a, 0x8c,
    0xbe, 0xea, 0x8c, 0x5c, 0x3e, 0x7a, 0xa9, 0x5f, 0x3d, 0x05, 0x14, 0x76, 0xbd,
    0x74, 0x5d, 0x84, 0x3e, 0x96, 0x1e, 0x0b, 0xbe, 0x40, 0xab, 0x2a, 0xbe, 0x86,
    0xc6, 0x89, 0x3e, 0x4f, 0x05, 0x0c, 0x3e, 0xfd, 0xe9, 0xe3, 0x3d, 0x1f, 0xaf,
    0x59, 0xbd, 0x7f, 0x1c, 0x46, 0x3b, 0xfc, 0xa7, 0x04, 0xbe, 0x8a, 0xb5, 0x76,
    0x3e, 0x2f, 0xa9, 0x33, 0xbc, 0x91, 0x63, 0x55, 0x3d, 0xd8, 0x30, 0x78, 0x3c,
    0x41, 0x6b, 0x4b, 0xbe, 0x27, 0x02, 0xe1, 0x3c, 0x30, 0xae, 0xaa, 0xbd, 0x7f,
    0xed, 0xfc, 0x3d, 0xc4, 0xe6, 0x42, 0xbd, 0xfd, 0x21, 0xca, 0x3c, 0x38, 0x43,
    0x18, 0xbe, 0x2c, 0x1f, 0x83, 0xbe, 0x14, 0xe7, 0xce, 0xbb, 0x62, 0x61, 0x27,
    0xbe, 0xb4, 0x04, 0x88, 0xbe, 0x98, 0xbf, 0x1c, 0x3e, 0x6b, 0x89, 0x1b, 0xbe,
    0x3f, 0x6c, 0x22, 0x3c, 0x1e, 0x85, 0x22, 0x3e, 0xe1, 0x6e, 0x89, 0xba, 0x8f,
    0x34, 0x1c, 0x3e, 0x95, 0x27, 0x46, 0x3e, 0x18, 0x87, 0xf4, 0xbc, 0x36, 0x1b,
    0x77, 0xbe, 0x56, 0x73, 0x89, 0xbd, 0xc0, 0xa1, 0x37, 0xbd, 0x97, 0x46, 0x6e,
    0xbe, 0x7c, 0xd6, 0x95, 0x3e, 0x23, 0xd9, 0x12, 0xbe, 0x1a, 0xaf, 0x89, 0x3d,
    0xc7, 0xdf, 0x8a, 0x3c, 0x41, 0xd7, 0x92, 0x3b, 0x05, 0x7d, 0xa4, 0xbd, 0x18,
    0x18, 0x08, 0xbe, 0xee, 0xf9, 0xb5, 0x3d, 0xb0, 0x63, 0x78, 0x3d, 0x3c, 0x1a,
    0xaf, 0xbd, 0x97, 0x61, 0x56, 0xbe, 0x31, 0x26, 0x3e, 0xbd, 0x87, 0x48, 0x34,
    0x3d, 0x30, 0xc2, 0x1c, 0x3e, 0xba, 0x69, 0xa3, 0x3c, 0x00, 0x66, 0x16, 0xbe,
    0x57, 0xd4, 0x5b, 0xbe, 0x70, 0xa8, 0x00, 0xbb, 0x05, 0x36, 0xf4, 0xbc, 0x7c,
    0x2c, 0x47, 0x3e, 0xb0, 0x3e, 0x50, 0x3e, 0x2b, 0x6a, 0xc6, 0xbb, 0x70, 0x7e,
    0x42, 0xbe, 0xda, 0x09, 0x5f, 0xbe, 0x3c, 0x33, 0xfb, 0x3c, 0x43, 0x54, 0x29,
    0x3e, 0xd1, 0xbf, 0x16, 0xbe, 0xba, 0xb4, 0xcf, 0x3c, 0x37, 0x00, 0xa5, 0x39,
    0xbd, 0x76, 0x22, 0x3e, 0x99, 0x78, 0x57, 0x3d, 0x2b, 0x9f, 0x9b, 0xbd, 0x9b,
    0x3d, 0x33, 0x3e, 0x2a, 0x3c, 0xf6, 0xbd, 0xa1, 0x95, 0xe6, 0xbc, 0x76, 0x3d,
    0x0a, 0xbe, 0x64, 0x6f, 0xf4, 0x3c, 0x3c, 0x15, 0x30, 0x3e, 0x55, 0x74, 0x1b,
    0x3e, 0xc0, 0x18, 0x46, 0xbe, 0x70, 0x59, 0xa4, 0x3d, 0x6e, 0xd7, 0x12, 0xbd,
    0x04, 0x80, 0x25, 0xbe, 0xaf, 0xf1, 0x47, 0xbe, 0x31, 0x6e, 0xd4, 0xbd, 0x00,
    0xcc, 0xc6, 0x3d, 0x8b, 0x58, 0x25, 0xbe, 0x3c, 0x6d, 0x0c, 0x3e, 0x68, 0xae,
    0xf9, 0xbd, 0xe1, 0xb7, 0x36, 0xbe, 0x41, 0x4d, 0xcf, 0xbb, 0xf8, 0xc9, 0xcc,
    0x3b, 0x53, 0x19, 0x63, 0x3d, 0xff, 0x56, 0x06, 0x3d, 0xd5, 0xcc, 0x78, 0x3d,
    0x51, 0x44, 0x3a, 0x3d, 0xcc, 0x9a, 0x51, 0xbe, 0x1a, 0x3f, 0xe9, 0xbd, 0x7c,
    0x19, 0x3d, 0xbe, 0xff, 0xc5, 0x4a, 0x3d, 0xee, 0x3c, 0x3d, 0xbe, 0xf0, 0xfb,
    0x15, 0xbe, 0x54, 0xf8, 0x57, 0xbe, 0x02, 0xa9, 0x4c, 0x3e, 0xfb, 0x22, 0x1a,
    0x3d, 0x40, 0x1a, 0x49, 0x3e, 0x2f, 0xbc, 0x01, 0x3d, 0x02, 0xee, 0x37, 0x3c,
    0x75, 0xc1, 0x0f, 0x3e, 0x22, 0xe4, 0x94, 0x3d, 0xeb, 0x2c, 0x02, 0xbd, 0x7c,
    0xb1, 0x33, 0x3e, 0xa5, 0x11, 0x16, 0x3a, 0xac, 0x77, 0x1b, 0x3e, 0x18, 0x63,
    0xa8, 0x3d, 0x3f, 0x9e, 0x08, 0xbe, 0x1e, 0x35, 0xac, 0x3d, 0xba, 0x4f, 0x9b,
    0x3d, 0xcd, 0xb8, 0x35, 0x3e, 0x8d, 0x36, 0x93, 0x3c, 0xb4, 0xa7, 0x34, 0x3e,
    0xc2, 0x09, 0x9d, 0xbc, 0x35, 0xef, 0x6d, 0xbc, 0xd3, 0x3d, 0x01, 0x3e, 0x42,
    0xe4, 0x07, 0x3e, 0x0b, 0xc4, 0x02, 0xbd, 0xdf, 0xc0, 0x81, 0x3b, 0xc0, 0x15,
    0x22, 0xbe, 0x64, 0xb1, 0x23, 0xbe, 0xf8, 0x6d, 0x30, 0x3e, 0x2e, 0xbc, 0xba,
    0x3d, 0x2d, 0x7d, 0x2b, 0x3e, 0x58, 0x64, 0x29, 0xbd, 0x68, 0x93, 0x58, 0xbe,
    0x56, 0x89, 0x8a, 0xbd, 0xc8, 0x16, 0x46, 0xbe, 0xf7, 0x8a, 0x2c, 0x3e, 0x80,
    0x4a, 0xdb, 0x3d, 0x8a, 0x2d, 0x51, 0xbe, 0x5d, 0x5f, 0x59, 0xbe, 0x99, 0xdd,
    0x10, 0xbe, 0x1c, 0xb8, 0x50, 0xbc, 0x5d, 0x35, 0x1c, 0xbe, 0xbe, 0xc5, 0x46,
    0xbd, 0xce, 0x1e, 0x5a, 0xbe, 0x07, 0x82, 0xb1, 0xbb, 0x41, 0x44, 0x39, 0xbe,
    0x52, 0x50, 0x53, 0x3e, 0x5d, 0xdc, 0x3d, 0x3e, 0x95, 0xc9, 0x50, 0x3e, 0xed,
    0x67, 0x1b, 0x3e, 0x3d, 0xae, 0x42, 0xbd, 0xcc, 0x31, 0x9c, 0x3d, 0xcb, 0x06,
    0x07, 0xbe, 0x35, 0x88, 0xad, 0x3d, 0xdd, 0x5c, 0x79, 0x3c, 0x48, 0x14, 0x19,
    0xbd, 0xbf, 0xa0, 0xac, 0x3d, 0x8c, 0xd3, 0x60, 0xbe, 0x51, 0x05, 0x67, 0xbd,
    0x97, 0x7a, 0xe8, 0x3d, 0xe2, 0xd4, 0x90, 0x3d, 0x97, 0xb8, 0x39, 0x3e, 0x60,
    0x18, 0x61, 0xbc, 0x0c, 0xde, 0x19, 0xbe, 0xa8, 0xd6, 0x89, 0x3c, 0x60, 0xa8,
    0xd5, 0xbb, 0xa6, 0x0e, 0xba, 0x3d, 0xfc, 0x0c, 0x35, 0x3d, 0x43, 0x86, 0x08,
    0x3e, 0x4a, 0xce, 0xee, 0xbd, 0x58, 0xae, 0x15, 0xbe, 0x10, 0xbd, 0x6f, 0xbc,
    0x24, 0x41, 0x6b, 0x3d, 0xe0, 0x64, 0x34, 0xbd, 0xb4, 0x12, 0x47, 0x3d, 0xce,
    0x1c, 0xe0, 0x3d, 0x37, 0xa2, 0x3a, 0x3e, 0x1c, 0x26, 0x33, 0xbd, 0x24, 0x47,
    0x6b, 0x3d, 0xb3, 0x4e, 0x1f, 0x3e, 0xed, 0x49, 0x10, 0xbe, 0x14, 0xf9, 0x15,
    0xbe, 0x1c, 0x06, 0xf7, 0xbd, 0x3c, 0x6b, 0x78, 0x3d, 0x27, 0x30, 0x4d, 0x3e,
    0x28, 0xdf, 0x2a, 0xbe, 0xc5, 0x68, 0x0a, 0x3e, 0x40, 0x5b, 0xb4, 0x3c, 0x48,
    0xb5, 0x50, 0xbd, 0xe1, 0x80, 0x32, 0x3e, 0x74, 0x99, 0x8e, 0xbd, 0xf6, 0x6a,
    0x1e, 0xbe, 0x5b, 0xb0, 0x58, 0x3e, 0xd5, 0xfb, 0x27, 0x3e, 0x4e, 0xe1, 0xf9,
    0x3d, 0x38, 0x1b, 0x14, 0xbd, 0xdc, 0x29, 0x8a, 0xbd, 0x51, 0x00, 0x34, 0x3e,
    0x22, 0x74, 0x89, 0x3d, 0x92, 0x79, 0xbf, 0xbd, 0xa8, 0x8b, 0xea, 0xbd, 0x14,
    0x0e, 0x54, 0xbe, 0x16, 0xe0, 0xce, 0x3d, 0xe9, 0xb6, 0x1b, 0x3e, 0xb9, 0x7e,
    0xfc, 0xbd, 0xb3, 0x17, 0x4c, 0x3e, 0xe2, 0x7b, 0x26, 0xbe, 0x40, 0xbd, 0x12,
    0xbd, 0x49, 0x41, 0x07, 0x3e, 0xfa, 0xd6, 0xb2, 0x3d, 0x88, 0x2c, 0xc2, 0xbd,
    0x58, 0x67, 0xc8, 0x3c, 0x20, 0x08, 0x30, 0xbc, 0xd5, 0x7c, 0x06, 0x3e, 0x10,
    0xa4, 0x9c, 0xbd, 0x70, 0xb0, 0x9e, 0x3c, 0x55, 0x07, 0x2d, 0x3e, 0x2a, 0x21,
    0x8b, 0xbd, 0x4d, 0x03, 0x0a, 0xbe, 0x76, 0xc9, 0xae, 0x3d, 0x71, 0xd1, 0x07,
    0xbe, 0x61, 0x00, 0x08, 0x3e, 0x7a, 0x5c, 0x92, 0xbd, 0x10, 0x73, 0xd4, 0xbc,
    0x7d, 0xf0, 0x02, 0x3e, 0x54, 0x78, 0x2e, 0xbe, 0xce, 0x92, 0xd3, 0xbd, 0x0c,
    0x3a, 0x38, 0xbe, 0x7d, 0xf7, 0x19, 0x3e, 0xc0, 0x6f, 0x0f, 0xbe, 0xe2, 0xde,
    0x00, 0xbe, 0x4e, 0xfa, 0xe2, 0xbd, 0xf5, 0x4b, 0x05, 0xbe, 0x89, 0xdf, 0x31,
    0x3e, 0x1e, 0x95, 0x03, 0xbe, 0x85, 0xa5, 0x20, 0xbe, 0x3d, 0xb8, 0x3a, 0x3e,
    0x8c, 0x68, 0xf2, 0xbd, 0xa0, 0x0f, 0x64, 0x3c, 0x97, 0x78, 0x58, 0xbe, 0x7c,
    0x6d, 0x2a, 0x3d, 0x4c, 0x21, 0x60, 0xbd, 0xea, 0x3e, 0xa3, 0xbd, 0xda, 0xfd,
    0xad, 0x3d, 0xa0, 0xc7, 0xfa, 0x3c, 0x54, 0xd1, 0x0a, 0xbd, 0x5c, 0xfa, 0x13,
    0x3d, 0x04, 0xa3, 0x29, 0xbd, 0xae, 0x39, 0x88, 0xbd, 0xe0, 0xd2, 0x96, 0x3b,
    0x16, 0x02, 0xdf, 0x3d, 0xee, 0xb9, 0x0e, 0xbe, 0xfe, 0x51, 0x01, 0xbe, 0xa2,
    0xc2, 0xa0, 0xbd, 0x06, 0x3d, 0x8e, 0x3d, 0x40, 0x0e, 0xf0, 0xbc, 0xf6, 0x01,
    0x51, 0xbe, 0xe8, 0x7f, 0xde, 0x3c, 0x36, 0x91, 0xf8, 0x3d, 0xf2, 0x2e, 0xff,
    0xbd, 0xc0, 0xed, 0x3d, 0xbc, 0x0c, 0x17, 0x4c, 0xbd, 0x07, 0x5e, 0x1e, 0x3e,
    0x1f, 0x47, 0x43, 0xbe, 0xa0, 0x50, 0x32, 0xbd, 0xcd, 0x6e, 0x0b, 0xbe, 0xbd,
    0x17, 0x3f, 0x3e, 0x28, 0x68, 0x39, 0xbe, 0x8c, 0x7e, 0x48, 0xbe, 0xa0, 0x80,
    0x11, 0x3c, 0x57, 0x71, 0x0b, 0x3e, 0xec, 0xa1, 0x94, 0xbd, 0x58, 0xc3, 0xb3,
    0xbd, 0xc5, 0x23, 0xf1, 0xbd, 0xce, 0xd1, 0xd0, 0x3d, 0x50, 0xd7, 0x5e, 0xbd,
    0xc4, 0x2c, 0x0c, 0xbe, 0xcc, 0xd9, 0x41, 0xbe, 0xc6, 0x3b, 0x35, 0xbe, 0xd7,
    0x33, 0xdd, 0xbd, 0x46, 0x11, 0xf3, 0x3d, 0x39, 0xcc, 0x0c, 0xbe, 0x55, 0xd8,
    0x1a, 0xba, 0x45, 0xa2, 0x25, 0xbe, 0xd1, 0x00, 0x14, 0x3e, 0xce, 0x74, 0x41,
    0xbe, 0x0b, 0x5c, 0xf3, 0xbd, 0x78, 0x25, 0x5d, 0xbd, 0xea, 0x43, 0x29, 0xbb,
    0x9d, 0x82, 0x93, 0xbd, 0x82, 0x5a, 0x98, 0xbd, 0xe6, 0x8a, 0x40, 0x3e, 0x8f,
    0xac, 0xfd, 0xbd, 0x4d, 0x3f, 0xca, 0x3d, 0xdb, 0x9d, 0x7b, 0xbd, 0xf7, 0xa5,
    0xbb, 0xba, 0xaa, 0x85, 0x15, 0x3d, 0xa3, 0x33, 0x92, 0xbd, 0xdf, 0xc8, 0xd1,
    0x3d, 0xd0, 0x73, 0x41, 0x3d, 0x00, 0xcf, 0x8c, 0x3d, 0x6a, 0x88, 0x1b, 0xbd,
    0x37, 0x16, 0x46, 0x3c, 0xce, 0xdd, 0x96, 0xbb, 0x4a, 0xf5, 0x12, 0x3e, 0x3b,
    0xd9, 0x45, 0xbe, 0x8b, 0xbe, 0xf4, 0xbd, 0x6f, 0xfa, 0x4e, 0xbd, 0x9f, 0x20,
    0x2d, 0xbb, 0xde, 0x73, 0xe0, 0xbd, 0xf8, 0x75, 0x10, 0x3e, 0x89, 0xfc, 0xb3,
    0xbc, 0xcc, 0x8f, 0x1c, 0xbe, 0x92, 0x03, 0x23, 0x3c, 0x2a, 0xb4, 0x53, 0xbd,
    0xc6, 0x9f, 0x17, 0x3e, 0xcb, 0x2f, 0x05, 0xbe, 0xaf, 0xa2, 0x2a, 0x3e, 0x82,
    0xe1, 0x25, 0x3c, 0x29, 0xbc, 0x9b, 0xbd, 0x6a, 0x33, 0x4f, 0xbd, 0x18, 0xf1,
    0x37, 0xbe, 0xfc, 0x92, 0xb0, 0x3d, 0x79, 0xb7, 0x72, 0x3c, 0xb1, 0x5e, 0x43,
    0x3d, 0x0b, 0xa8, 0xf0, 0x3c, 0x63, 0xcf, 0x30, 0x3e, 0x87, 0xb5, 0x28, 0xbe,
    0x5a, 0x1d, 0x97, 0x3d, 0x35, 0xed, 0x00, 0xbd, 0x62, 0x50, 0x51, 0x3e, 0xd2,
    0x99, 0xac, 0x3d, 0xaf, 0x75, 0xc0, 0x3c, 0x8b, 0xbe, 0x64, 0x3d, 0x41, 0x8a,
    0xd0, 0xbd, 0x21, 0xb0, 0xe1, 0xbd, 0x22, 0x84, 0xf0, 0xbd, 0x95, 0x78, 0x05,
    0x3c, 0x78, 0xbc, 0x21, 0x3c, 0x91, 0x86, 0x1c, 0xbd, 0x4e, 0x06, 0x68, 0xbd,
    0xfb, 0x63, 0xd9, 0x3d, 0xbc, 0xdb, 0x1a, 0xbe, 0x82, 0x85, 0x1d, 0xbe, 0xf1,
    0x7b, 0x48, 0xbe, 0x8a, 0x74, 0xd9, 0xbc, 0xcc, 0xeb, 0x09, 0xbe, 0x33, 0x40,
    0x07, 0x3e, 0x4f, 0x2d, 0x9e, 0x38, 0x46, 0xa6, 0x41, 0xbe, 0x0d, 0x79, 0x50,
    0xbe, 0x8c, 0x02, 0x8c, 0x3d, 0x9a, 0x0c, 0x99, 0x3c, 0xc5, 0x58, 0x32, 0xbe,
    0x30, 0xfa, 0xa4, 0xbd, 0xb3, 0x37, 0x1d, 0x3e, 0xcf, 0x5c, 0xfb, 0xbd, 0xb2,
    0xd3, 0xf7, 0x3d, 0x88, 0x67, 0x38, 0x3e, 0x95, 0xfe, 0x41, 0x3e, 0x3b, 0xad,
    0xe5, 0x3d, 0x83, 0x5a, 0x73, 0xbd, 0x57, 0x3f, 0x28, 0xbe, 0x6c, 0xa2, 0xf1,
    0xbc, 0x28, 0x3b, 0x47, 0x3e, 0x22, 0x75, 0x43, 0x3e, 0x1e, 0x6a, 0x60, 0xbe,
    0x7a, 0x84, 0xca, 0x3c, 0xe5, 0xd6, 0x39, 0x3e, 0x22, 0xad, 0x35, 0xbd, 0x79,
    0x50, 0x3e, 0x3e, 0xb2, 0x82, 0x41, 0x3e, 0x2e, 0x3a, 0x04, 0xbe, 0x0e, 0xad,
    0x34, 0xbe, 0xea, 0xc6, 0x6b, 0xbe, 0x25, 0xdb, 0x33, 0x3d, 0x1e, 0x04, 0x2e,
    0x3e, 0x7f, 0x90, 0xd5, 0xbd, 0x07, 0x95, 0xfd, 0x3d, 0xc7, 0x98, 0x54, 0x3c,
    0x90, 0x5d, 0x00, 0x3e, 0xae, 0x4a, 0x5e, 0x3a, 0x37, 0xac, 0x11, 0x3e, 0x19,
    0xda, 0x98, 0xbd, 0xd5, 0x6a, 0xb8, 0x3d, 0xa5, 0x3e, 0x0e, 0x3e, 0xcc, 0xd7,
    0x2d, 0xbe, 0xc1, 0x17, 0x2b, 0xbe, 0x03, 0xc4, 0xc9, 0x3d, 0xf4, 0x89, 0x5e,
    0xbe, 0x45, 0xce, 0x7a, 0xbd, 0x68, 0xab, 0x26, 0x3e, 0x4c, 0x3e, 0x5a, 0x3d,
    0xc7, 0x7b, 0xc9, 0xbd, 0xc2, 0x81, 0x08, 0x3d, 0xef, 0x3f, 0xb2, 0xbc, 0x49,
    0x5d, 0x49, 0xbe, 0x88, 0x1f, 0x5e, 0xbe, 0x20, 0x8d, 0x06, 0x3d, 0xe1, 0x3d,
    0x35, 0x3e, 0x14, 0x2b, 0xc1, 0xbd, 0x71, 0xfc, 0x7c, 0x3e, 0x28, 0x31, 0x7b,
    0xbe, 0x9f, 0xda, 0x9a, 0x3d, 0xe3, 0x84, 0x37, 0x3e, 0xfc, 0x69, 0x31, 0xbe,
    0xc8, 0x58, 0xfa, 0x3d, 0x01, 0xd6, 0x62, 0xbd, 0x8f, 0x1e, 0x81, 0xbc, 0xd5,
    0x55, 0x1c, 0x3e, 0x64, 0xf6, 0x8e, 0x3e, 0x98, 0x65, 0x58, 0x3d, 0x09, 0x6b,
    0x35, 0xbe, 0x2d, 0x53, 0xc0, 0x3c, 0x12, 0x03, 0xf1, 0x3d, 0x8c, 0x61, 0x37,
    0x3e, 0x4c, 0x8e, 0x11, 0xbd, 0x65, 0xc5, 0x37, 0xbd, 0x53, 0x2b, 0x31, 0xbd,
    0x4c, 0xea, 0x12, 0xbd, 0xd6, 0x63, 0x0c, 0xbe, 0x50, 0xe2, 0x05, 0x3d, 0x07,
    0xc8, 0x31, 0x3e, 0xcf, 0x95, 0x49, 0xbb, 0x44, 0x17, 0x16, 0x3e, 0x18, 0x13,
    0x1c, 0xbd, 0x0a, 0x82, 0xa5, 0xbd, 0x90, 0x89, 0x67, 0xbd, 0xf0, 0xd8, 0xcb,
    0x3b, 0x3d, 0x3c, 0x6a, 0x3d, 0xaf, 0x83, 0x94, 0x3c, 0x57, 0xf5, 0xcf, 0x3d,
    0xe1, 0xf2, 0xd2, 0xbd, 0xf2, 0x00, 0x33, 0x3e, 0x07, 0xc6, 0x7a, 0x3e, 0x09,
    0x15, 0xd3, 0xbd, 0x80, 0xe4, 0x23, 0x3d, 0xb5, 0xc3, 0xcf, 0x3d, 0xe3, 0xde,
    0x19, 0xbe, 0xbc, 0x48, 0x71, 0x3e, 0x6e, 0x88, 0x96, 0x3d, 0x2a, 0xab, 0x8f,
    0xbe, 0x19, 0x10, 0x13, 0xbe, 0x24, 0x08, 0x41, 0x3e, 0x63, 0x66, 0x55, 0xbe,
    0x8c, 0xfd, 0x6f, 0x3e, 0x97, 0x81, 0x69, 0xbd, 0xa1, 0xfc, 0x8a, 0xbe, 0x0c,
    0xec, 0x48, 0x3c, 0x95, 0x9c, 0x63, 0x3e, 0x27, 0x73, 0xde, 0x3d, 0xde, 0xf0,
    0xfd, 0x3b, 0xda, 0xc0, 0x8e, 0x3d, 0x7e, 0xbd, 0xb0, 0x3c, 0x67, 0x50, 0xd3,
    0xbb, 0x92, 0x48, 0x90, 0x3e, 0x63, 0x7c, 0x48, 0x3d, 0x3c, 0xf3, 0xa9, 0x3d,
    0x41, 0x4f, 0x54, 0x3e, 0x90, 0x5f, 0x95, 0xbe, 0x68, 0xb7, 0xc2, 0xbd, 0x1a,
    0xe8, 0x95, 0xbd, 0x3a, 0x94, 0x9a, 0xbd, 0xf2, 0x11, 0xb5, 0xbd, 0x2e, 0x58,
    0x91, 0x3e, 0x3a, 0xb6, 0xd2, 0xbd, 0xe7, 0xcb, 0xd4, 0xbd, 0xa0, 0x32, 0x7b,
    0x3d, 0xed, 0xe9, 0x68, 0x3d, 0x19, 0x66, 0xfa, 0x3d, 0x77, 0x07, 0x69, 0x3d,
    0x14, 0x20, 0xb7, 0x3d, 0x30, 0x66, 0x34, 0x3e, 0x10, 0xa4, 0x30, 0x3e, 0x00,
    0x3f, 0xd0, 0x3d, 0x5f, 0x89, 0x13, 0xbe, 0xa0, 0xe7, 0xf5, 0xbd, 0x6c, 0x97,
    0x0f, 0xbe, 0xd0, 0x95, 0x18, 0xbe, 0x50, 0xb8, 0x9f, 0x3d, 0x53, 0x56, 0x8f,
    0xbc, 0xd1, 0x04, 0x0c, 0xbe, 0xb1, 0x7a, 0x95, 0x3e, 0x58, 0x76, 0x4d, 0xbd,
    0x16, 0x55, 0x89, 0xbd, 0x37, 0x70, 0x85, 0x3d, 0xdc, 0x87, 0x0a, 0x38, 0x2e,
    0xf8, 0xbd, 0x3d, 0x0e, 0xf7, 0xcf, 0x3c, 0xac, 0x20, 0x0d, 0xbe, 0x10, 0x76,
    0x07, 0x3e, 0x37, 0x78, 0x6a, 0x3e, 0x30, 0x45, 0x06, 0x3e, 0xd7, 0xc1, 0xd5,
    0x3d, 0x05, 0xa5, 0x1b, 0x3e, 0x8e, 0x2c, 0xd2, 0xbc, 0x18, 0xa2, 0x27, 0x3d,
    0x79, 0x68, 0x54, 0x3e, 0x71, 0xf6, 0x55, 0xbd, 0x2c, 0xff, 0xb9, 0x3d, 0xe5,
    0xdd, 0xd3, 0xbb, 0xda, 0xfd, 0x97, 0xbe, 0x73, 0x97, 0x3f, 0xbd, 0x51, 0x83,
    0x2c, 0x3c, 0xf3, 0x71, 0x76, 0xbd, 0x55, 0xfe, 0x2f, 0xbe, 0x2d, 0x41, 0x82,
    0x3e, 0xde, 0xd4, 0x8b, 0xbe, 0x34, 0xff, 0xb9, 0x3d, 0x67, 0xaa, 0x95, 0x3e,
    0x70, 0x77, 0x11, 0xbe, 0x04, 0x9e, 0xb4, 0x3c, 0x96, 0xa9, 0x8d, 0xbb, 0x45,
    0x87, 0x76, 0xbd, 0xe4, 0x49, 0xcf, 0x3d, 0xed, 0xbd, 0xa6, 0xbd, 0x03, 0xe6,
    0x33, 0x3d, 0xec, 0x7e, 0x08, 0xbe, 0x8e, 0x66, 0x28, 0x3d, 0xd4, 0x63, 0xb8,
    0x3c, 0x7a, 0x74, 0xd7, 0x3c, 0x6b, 0x76, 0xa6, 0x3d, 0xad, 0xab, 0xec, 0xbc,
    0x9b, 0x70, 0x1c, 0xbe, 0x12, 0x6a, 0x7b, 0xbc, 0x70, 0x5e, 0xe8, 0x3b, 0x98,
    0xb1, 0x29, 0x3e, 0xed, 0x87, 0x46, 0xbe, 0x62, 0x7d, 0xa3, 0xbd, 0x86, 0x0c,
    0xd7, 0x3d, 0xac, 0x5e, 0x85, 0xbc, 0x2a, 0x29, 0xa4, 0x3d, 0x25, 0x11, 0xfd,
    0xbd, 0x18, 0xfd, 0x85, 0x3d, 0xdb, 0x8a, 0x3a, 0x3e, 0xec, 0xf9, 0xd4, 0x3a,
    0xf8, 0x64, 0xd0, 0xbd, 0xdd, 0x4e, 0xfa, 0x3d, 0x3c, 0x7a, 0xc5, 0x3d, 0x43,
    0x7d, 0xe8, 0xbd, 0x90, 0xe7, 0x23, 0x3e, 0xa6, 0x03, 0xc1, 0x3d, 0xcb, 0x90,
    0xf1, 0x3d, 0x7b, 0x95, 0x10, 0x3e, 0x1a, 0xe7, 0xe1, 0xbd, 0x61, 0x2e, 0xbb,
    0xbb, 0x69, 0x90, 0x67, 0xbe, 0xcd, 0x6d, 0x6c, 0x3c, 0xcc, 0x94, 0xc9, 0xbc,
    0x5a, 0x9c, 0xa7, 0x3d, 0x6c, 0xb1, 0xb6, 0x3d, 0xc6, 0xc2, 0x53, 0xbd, 0xae,
    0x4d, 0x22, 0x3e, 0x1d, 0x46, 0x1b, 0xbe, 0xc4, 0x49, 0x26, 0x3e, 0x7e, 0xcf,
    0x2e, 0x3e, 0x1b, 0x88, 0xd2, 0xbc, 0x0b, 0x2e, 0x12, 0xbd, 0x8f, 0x6a, 0x41,
    0x3c, 0x76, 0x24, 0xea, 0x3d, 0x23, 0xe2, 0x44, 0xbe, 0xe1, 0x26, 0x55, 0xbe,
    0x4f, 0xb1, 0x2e, 0xbe, 0x69, 0x7f, 0xcf, 0xbd, 0xdc, 0x99, 0x4e, 0xbd, 0xb9,
    0x1c, 0x84, 0x3c, 0x75, 0xa5, 0x24, 0xbe, 0x6d, 0xd1, 0x38, 0x3e, 0x12, 0xaa,
    0x49, 0x3d, 0x31, 0xf3, 0x80, 0xbc, 0x6d, 0x7f, 0x35, 0xbd, 0x81, 0xa7, 0x42,
    0xbe, 0x80, 0x4a, 0x38, 0x3d, 0xe4, 0x62, 0x83, 0xbd, 0xbb, 0xdb, 0x0d, 0x3e,
    0x28, 0x60, 0x73, 0x3d, 0x4a, 0x33, 0x95, 0xbb, 0x09, 0x47, 0x09, 0xbe, 0x8e,
    0x24, 0xaf, 0x3d, 0x36, 0xec, 0x41, 0xbd, 0x18, 0x85, 0x90, 0xbd, 0x6d, 0xe0,
    0x47, 0xbe, 0x74, 0x56, 0xc6, 0x3d, 0x79, 0xdc, 0x4d, 0xbc, 0x1a, 0x43, 0x48,
    0x3e, 0xa3, 0xd6, 0x2e, 0xbe, 0x20, 0x20, 0x0d, 0x3e, 0x2d, 0x4f, 0x3b, 0x3e,
    0x88, 0x15, 0xbe, 0xbd, 0x5e, 0xd8, 0x1d, 0xbc, 0x7a, 0x0b, 0x20, 0x3e, 0x47,
    0x11, 0xc9, 0xbc, 0xca, 0x61, 0x01, 0x3d, 0x43, 0x2f, 0xf0, 0x3d, 0x6f, 0x5f,
    0x0f, 0xbe, 0xaa, 0x7b, 0xc9, 0xbd, 0xd9, 0x94, 0x79, 0xbd, 0x01, 0x05, 0x09,
    0xbe, 0xfe, 0x0d, 0xe6, 0xbd, 0x42, 0x23, 0x68, 0xbd, 0x1e, 0xa3, 0x1c, 0x3e,
    0xb4, 0x0c, 0x3c, 0x3e, 0xa2, 0x65, 0x41, 0xbd, 0xd1, 0x80, 0x05, 0xbe, 0x4f,
    0xf3, 0x5f, 0xbd, 0x02, 0xc2, 0x23, 0xbe, 0x77, 0x50, 0x69, 0x3b, 0xf4, 0x25,
    0x25, 0x3d, 0x35, 0x1a, 0x31, 0xbe, 0x7e, 0x02, 0x3a, 0xbd, 0xd3, 0x16, 0xa1,
    0xbd, 0xfa, 0xa0, 0x4e, 0xbc, 0x57, 0xce, 0x2e, 0xbe, 0xd0, 0x26, 0x5f, 0xbe,
    0xbd, 0x99, 0x57, 0xbd, 0x64, 0x9c, 0xa6, 0xbb, 0xbd, 0x6b, 0x05, 0x3d, 0x6a,
    0x0d, 0x3c, 0xbd, 0x7f, 0xf3, 0x78, 0xbe, 0xc8, 0x77, 0xf2, 0x3d, 0xf5, 0xf5,
    0xd2, 0xbd, 0x12, 0x9f, 0x2a, 0x3e, 0x06, 0x7c, 0x1f, 0x3e, 0x6f, 0x62, 0x37,
    0xbe, 0x53, 0x64, 0x3d, 0xbe, 0xb9, 0x18, 0x15, 0x3e, 0x68, 0x85, 0x98, 0x3d,
    0x2c, 0x1b, 0x15, 0xbe, 0x1f, 0x72, 0x9d, 0xbd, 0xce, 0x2d, 0xf9, 0x3c, 0xa2,
    0xb0, 0x55, 0xbe, 0x9a, 0x6d, 0xc0, 0x3d, 0x71, 0xf9, 0x80, 0x3c, 0x9d, 0x4c,
    0x3f, 0xbe, 0xe2, 0xf0, 0x20, 0x3e, 0xb2, 0x37, 0x42, 0xbd, 0xf7, 0x06, 0xf4,
    0x3d, 0xab, 0x95, 0x3f, 0x3d, 0xd8, 0x6d, 0xca, 0x3d, 0xe3, 0x65, 0x3d, 0x3b,
    0x06, 0x90, 0xa8, 0x3d, 0x45, 0x13, 0x19, 0x3e, 0xb9, 0x2e, 0x29, 0xbe, 0xca,
    0xa5, 0xfa, 0x3d, 0xe2, 0xee, 0x85, 0x3d, 0x75, 0x3d, 0x2a, 0x3e, 0x10, 0x93,
    0x41, 0xbe, 0xbb, 0x13, 0x03, 0x3e, 0x5d, 0x60, 0x04, 0x3e, 0x7c, 0xe1, 0x3c,
    0x3d, 0x26, 0x23, 0x23, 0xbe, 0xfa, 0x1b, 0xe0, 0x3d, 0x9c, 0x8e, 0xea, 0xbd,
    0xb0, 0x49, 0x04, 0xbe, 0x73, 0xea, 0x03, 0x3e, 0x80, 0x85, 0x9e, 0x3a, 0x51,
    0xbe, 0x44, 0x3e, 0xb6, 0x47, 0xce, 0x3d, 0xfd, 0xc5, 0x33, 0x3e, 0x00, 0x85,
    0xb1, 0xbc, 0x5a, 0x26, 0xa8, 0x3d, 0x20, 0x50, 0x1f, 0xbd, 0x23, 0xeb, 0x58,
    0xbe, 0xae, 0x19, 0xea, 0x3d, 0x3e, 0x73, 0x9c, 0x3d, 0xb3, 0x7a, 0x45, 0xbe,
    0xcd, 0x38, 0x32, 0x3e, 0x0e, 0x18, 0x2d, 0xbe, 0xea, 0x64, 0x8c, 0x3d, 0x3d,
    0xe9, 0x0a, 0x3e, 0x38, 0xe3, 0x4d, 0xbe, 0x8c, 0x27, 0x32, 0xbe, 0x72, 0x9c,
    0xae, 0xbd, 0x06, 0x05, 0x8f, 0x3d, 0x80, 0x10, 0x9e, 0x3c, 0xa8, 0x3d, 0x98,
    0xbd, 0x4f, 0x3e, 0x28, 0xbe, 0x8a, 0x16, 0x84, 0xbd, 0x58, 0x97, 0xc4, 0x3c,
    0xcd, 0xc1, 0x3a, 0x3e, 0xd9, 0x17, 0x59, 0x3e, 0x00, 0xed, 0x3d, 0xbe, 0x59,
    0xdd, 0x58, 0xbe, 0x47, 0x29, 0x4c, 0x3e, 0xef, 0x32, 0x13, 0x3e, 0x29, 0x67,
    0x50, 0xbe, 0xc4, 0x43, 0x84, 0xbd, 0x0f, 0x25, 0x45, 0x3e, 0x3a, 0x77, 0x95,
    0x3d, 0x3f, 0x56, 0xd3, 0xbd, 0x39, 0xca, 0x03, 0x3e, 0xe3, 0xa6, 0x38, 0xbe,
    0xe0, 0x4d, 0xb7, 0x3b, 0x14, 0xfc, 0x7b, 0x3d, 0x30, 0x74, 0x79, 0xbd, 0xfa,
    0x21, 0xcf, 0x3d, 0x6c, 0xd9, 0x71, 0x3d, 0xd4, 0x1e, 0x60, 0xbd, 0xb8, 0x76,
    0xe5, 0xbc, 0x80, 0x8f, 0x07, 0x3c, 0x2a, 0x6e, 0x82, 0xbd, 0x7c, 0x93, 0x78,
    0x3d, 0xaa, 0x83, 0x10, 0xbe, 0x95, 0xd0, 0x4d, 0xbe, 0x18, 0x8e, 0x9d, 0x3c,
    0xb6, 0x27, 0x5b, 0xbe, 0x54, 0x0e, 0x51, 0xbe, 0x5c, 0xec, 0x6b, 0x3d, 0x40,
    0xdf, 0xe7, 0x3b, 0xf6, 0x1b, 0x14, 0xbe, 0x92, 0x35, 0x43, 0xbe, 0xe0, 0xce,
    0xbd, 0x3b, 0x20, 0xf7, 0xf0, 0xbb, 0x52, 0xb4, 0xe1, 0x3d, 0x40, 0x22, 0x28,
    0xbd, 0xd4, 0x45, 0x6a, 0x3d, 0x50, 0x87, 0x6e, 0xbd, 0x97, 0x6c, 0xc6, 0xbd,
    0xec, 0x7f, 0x26, 0xbe, 0x89, 0x17, 0x0b, 0x3e, 0x2b, 0xc0, 0x1d, 0xbe, 0x90,
    0x85, 0x2b, 0xbc, 0x64, 0xa6, 0x00, 0x3d, 0x70, 0x94, 0x67, 0xbc, 0xcc, 0x73,
    0x48, 0xbd, 0x43, 0xe8, 0x0a, 0x3e, 0xb5, 0x37, 0x43, 0xbe, 0xfc, 0xd9, 0x12,
    0xbd, 0xb0, 0x01, 0x43, 0xbe, 0xd0, 0x5e, 0x94, 0xbd, 0xe1, 0x6a, 0x44, 0xbe,
    0x52, 0x76, 0xaf, 0x3d, 0x85, 0xed, 0x55, 0x3e, 0x16, 0x18, 0xfe, 0x3d, 0x75,
    0x1a, 0x3c, 0x3e, 0x20, 0xe3, 0x7a, 0xbd, 0xc0, 0xba, 0xbf, 0xbb, 0x90, 0xab,
    0xb9, 0xbd, 0xc8, 0x7d, 0x42, 0xbe, 0x80, 0x84, 0x92, 0xba, 0x8e, 0x95, 0x58,
    0xbe, 0x80, 0x47, 0xa0, 0x3a, 0x8a, 0xca, 0xe6, 0x3d, 0xf5, 0x2b, 0x50, 0xbe,
    0x70, 0xf4, 0xc2, 0xbd, 0xc4, 0x1c, 0x44, 0x3d, 0x03, 0x5e, 0xe1, 0xbd, 0xe4,
    0xd0, 0x27, 0x3d, 0xf2, 0x3d, 0xc4, 0x3d, 0xa5, 0xbc, 0xba, 0xbd, 0x76, 0xb2,
    0xc1, 0x3d, 0xac, 0x4b, 0xbc, 0xbd, 0xc8, 0xc1, 0xe5, 0xbd, 0xd8, 0x01, 0x1b,
    0xbe, 0x19, 0x99, 0x19, 0x3e, 0x08, 0x66, 0x67, 0xbd, 0x40, 0x13, 0x81, 0x3b,
    0x32, 0xbc, 0xf2, 0x3d, 0xbc, 0xca, 0x37, 0xbd, 0x70, 0xa4, 0x0f, 0xbe, 0x44,
    0x8c, 0x89, 0x3c, 0x6a, 0xff, 0x80, 0x3e, 0xc5, 0x72, 0x9d, 0x3d, 0xc4, 0x08,
    0x22, 0x3d, 0x48, 0x01, 0x68, 0x3d, 0xf0, 0x15, 0xbc, 0x3d, 0x30, 0xdd, 0x22,
    0x3d, 0x6d, 0x0f, 0x98, 0x3e, 0x69, 0x99, 0xa6, 0xbd, 0xec, 0x9f, 0xbe, 0xbd,
    0x5b, 0x64, 0xea, 0xbd, 0x78, 0xe0, 0x1e, 0xbe, 0xbf, 0xa9, 0x00, 0xbe, 0xa3,
    0xdc, 0xff, 0xbc, 0xf0, 0x57, 0x60, 0x3d, 0x7e, 0x2c, 0x83, 0xbd, 0x36, 0x2e,
    0x96, 0x3e, 0x9c, 0x7a, 0x79, 0xbd, 0x71, 0x9f, 0x03, 0xbe, 0x4a, 0x77, 0x10,
    0xbc, 0x43, 0x9c, 0x25, 0xbc, 0x22, 0xcc, 0x6c, 0xbc, 0xc7, 0x0e, 0x13, 0xbd,
    0x4f, 0x9e, 0xc3, 0x3d, 0xbb, 0x90, 0xd4, 0xbd, 0xce, 0xd9, 0x98, 0xbd, 0xab,
    0x5f, 0x12, 0xbe, 0x4a, 0xe9, 0xc6, 0xbd, 0x2a, 0xb3, 0x31, 0x3e, 0x26, 0x54,
    0xb0, 0xbd, 0xc3, 0x97, 0xd7, 0xbd, 0x61, 0x07, 0x31, 0x3e, 0x35, 0x1a, 0x71,
    0xbe, 0xe7, 0x3d, 0x67, 0x3c, 0xc7, 0xf6, 0x82, 0x3e, 0x37, 0x9f, 0x61, 0xbe,
    0xdc, 0xd4, 0x47, 0x3e, 0xbb, 0x00, 0x8f, 0xb9, 0xbd, 0x1d, 0x70, 0x3d, 0x2a,
    0x9e, 0x89, 0x3d, 0xc3, 0x70, 0x60, 0x3e, 0xfb, 0x10, 0x01, 0xbe, 0xc2, 0xf8,
    0x05, 0x3e, 0x3b, 0x14, 0x92, 0x3e, 0x34, 0xbc, 0x7f, 0xbe, 0x1f, 0xc3, 0xf6,
    0x3d, 0xce, 0xe7, 0x81, 0x3d, 0x3c, 0xa0, 0xd0, 0x3a, 0x46, 0x1a, 0x35, 0x3e,
    0xf0, 0xc7, 0x56, 0x3e, 0x29, 0x53, 0xae, 0x3d, 0x6d, 0x74, 0x44, 0x3e, 0xdb,
    0x6b, 0x87, 0x3e, 0x17, 0xd7, 0x1f, 0xbe, 0x83, 0x34, 0x10, 0x3d, 0x34, 0x58,
    0xab, 0x3c, 0xcd, 0xdb, 0x92, 0xbe, 0x80, 0x76, 0xbe, 0xbd, 0x44, 0xfc, 0x5c,
    0x3e, 0x76, 0xfb, 0xdc, 0x3d, 0x4f, 0x91, 0x4c, 0x3d, 0x27, 0x72, 0x6b, 0x3e,
    0xc3, 0x5a, 0x49, 0xbd, 0x40, 0x50, 0x0b, 0x3d, 0x67, 0xc0, 0xd2, 0x3d, 0xdb,
    0x92, 0x30, 0xbd, 0xbd, 0xde, 0xda, 0xbd, 0xd1, 0xf5, 0x62, 0x3e, 0x3c, 0x4d,
    0x09, 0xbd, 0x23, 0xca, 0x13, 0x3e, 0x73, 0x02, 0x2b, 0x3e, 0x81, 0x58, 0x1d,
    0xbe, 0xc7, 0xff, 0x24, 0x3e, 0xe1, 0xc2, 0x83, 0xbd, 0x57, 0xe0, 0xa2, 0x3d,
    0x34, 0x4c, 0xe5, 0xbd, 0x20, 0x7c, 0x98, 0x3d, 0x2b, 0x60, 0x44, 0xbe, 0xee,
    0x2a, 0x65, 0x3d, 0x64, 0xfe, 0x5b, 0x3e, 0xa6, 0xba, 0x2d, 0xbe, 0x78, 0x79,
    0x58, 0x3d, 0x21, 0x09, 0x4d, 0x3d, 0x8c, 0x68, 0x70, 0x3d, 0xbc, 0xff, 0xe5,
    0xbd, 0x79, 0x38, 0x7f, 0x3e, 0x5a, 0x80, 0x77, 0xbe, 0x33, 0x62, 0x23, 0x3e,
    0x50, 0xe1, 0x02, 0xbd, 0x2e, 0xd7, 0x04, 0xbd, 0x4e, 0x67, 0x29, 0xbd, 0xe3,
    0xab, 0xc6, 0xbc, 0x1b, 0x37, 0x67, 0xbd, 0x14, 0x8b, 0xd7, 0xbd, 0xa2, 0xa8,
    0x4d, 0x3e, 0x29, 0xef, 0x10, 0xbe, 0x91, 0x3b, 0x38, 0xbe, 0x22, 0xa6, 0xe7,
    0xbc, 0x02, 0x61, 0xb6, 0xbd, 0x08, 0xc4, 0x0d, 0x3e, 0x54, 0x24, 0x7a, 0xbd,
    0x7d, 0xb2, 0x4a, 0x3d, 0x29, 0x2a, 0xe5, 0x3d, 0xbb, 0x98, 0x9b, 0x3e, 0x3b,
    0x97, 0x23, 0xbe, 0x9e, 0x63, 0x1e, 0x3c, 0x1b, 0xc5, 0x87, 0x3e, 0x10, 0x03,
    0x70, 0x3c, 0x55, 0x41, 0x85, 0xbd, 0xa2, 0x65, 0x87, 0xbb, 0x05, 0xb6, 0x95,
    0xbe, 0xa0, 0xb0, 0xc3, 0x3d, 0xff, 0x70, 0x90, 0x3e, 0x81, 0x52, 0x05, 0xbe,
    0x46, 0x77, 0x6b, 0x3e, 0x85, 0x14, 0x4a, 0x3e, 0xc2, 0x79, 0xc1, 0x3c, 0x96,
    0x16, 0xb3, 0xbc, 0x9e, 0x14, 0x63, 0x3d, 0x42, 0xde, 0xa2, 0x3d, 0x1c, 0x91,
    0xb6, 0x3c, 0x78, 0xb2, 0x84, 0x3d, 0x47, 0x39, 0xf6, 0x3d, 0x8e, 0xb0, 0x3f,
    0x3e, 0x03, 0xcc, 0xaf, 0x3e, 0x8d, 0x23, 0x10, 0x3e, 0x99, 0x26, 0x34, 0x3d,
    0x39, 0xd7, 0x4a, 0xbd, 0xa1, 0xeb, 0x0d, 0xbe, 0x8e, 0x0a, 0x0a, 0x3c, 0xf2,
    0x1f, 0x4f, 0x3e, 0x28, 0xd3, 0x22, 0xbe, 0x88, 0xf7, 0x2f, 0x3e, 0x98, 0x9d,
    0x9f, 0x3e, 0x3a, 0x69, 0x12, 0x3e, 0x10, 0x22, 0x90, 0x3e, 0xca, 0x50, 0x82,
    0x3e, 0xf0, 0xc4, 0xa3, 0xbd, 0x6c, 0xa1, 0x43, 0xbd, 0xe8, 0x3f, 0xa8, 0x3e,
    0xbc, 0x7a, 0xf3, 0xbd, 0x1a, 0xe8, 0x7c, 0x3e, 0x48, 0xc8, 0x08, 0x3e, 0x78,
    0x9c, 0x96, 0x3c, 0x6f, 0x67, 0xe3, 0x3d, 0xfb, 0x67, 0xf0, 0xbc, 0x4e, 0x6d,
    0x28, 0xbe, 0x67, 0x6b, 0x02, 0x3d, 0x90, 0x5b, 0x74, 0x3e, 0x08, 0x6f, 0xaa,
    0xbd, 0x0e, 0x2c, 0xa4, 0xbd, 0x18, 0x6c, 0xa2, 0x3e, 0x13, 0xff, 0x2c, 0x3e,
    0x06, 0xc3, 0xb8, 0xbd, 0xfe, 0x83, 0x84, 0x3e, 0x4b, 0x9d, 0x16, 0xbe, 0x7e,
    0xe4, 0x2d, 0x3e, 0x56, 0x18, 0x08, 0x3d, 0xfb, 0xe2, 0x70, 0xbe, 0x30, 0xc9,
    0xc0, 0xbb, 0x06, 0x30, 0x24, 0x3e, 0x50, 0x2f, 0x51, 0x3d, 0x35, 0x9c, 0x89,
    0xbd, 0xb5, 0xaf, 0x70, 0x3e, 0x8f, 0x6d, 0x70, 0xbe, 0xbb, 0x33, 0xef, 0x3c,
    0x7b, 0xde, 0xe2, 0x3c, 0x9b, 0x6a, 0x2e, 0x3e, 0x7e, 0x18, 0xe0, 0xbd, 0x4f,
    0x93, 0x18, 0x3e, 0x6c, 0xd9, 0x33, 0xbe, 0xe0, 0x1f, 0x13, 0x3e, 0x32, 0xe9,
    0x80, 0xbc, 0xcb, 0x92, 0x2e, 0xbe, 0xc4, 0x65, 0xbc, 0xba, 0x45, 0x2f, 0xe7,
    0x3d, 0x40, 0x64, 0xc7, 0xbd, 0x11, 0x8f, 0x7b, 0x3e, 0x9b, 0x86, 0x8a, 0x3e,
    0x6a, 0x46, 0x29, 0x3e, 0x5c, 0xf1, 0x75, 0x3e, 0xc8, 0x4b, 0xc1, 0xbc, 0x4f,
    0xa6, 0xa2, 0x3d, 0x42, 0x72, 0x3d, 0x3e, 0x83, 0x60, 0x07, 0x3e, 0x01, 0x65,
    0x2c, 0x3e, 0x2c, 0x8b, 0x75, 0x3e, 0xe6, 0xef, 0x4c, 0x3b, 0x5c, 0x95, 0x0a,
    0xbd, 0xe4, 0x2c, 0x20, 0x3d, 0x65, 0xd7, 0x1a, 0x3d, 0xe3, 0x7f, 0xe8, 0xbd,
    0x4b, 0x28, 0xb6, 0xbd, 0xb5, 0x4b, 0xe2, 0x3d, 0xee, 0x8e, 0x24, 0x3e, 0xb1,
    0xd5, 0xe2, 0x3d, 0x5e, 0xa7, 0x01, 0x3e, 0x9a, 0x62, 0x2b, 0xbe, 0x13, 0x75,
    0x35, 0x3d, 0x0e, 0x82, 0x54, 0x3e, 0xe7, 0x2f, 0x9c, 0xbb, 0x20, 0xd7, 0xc0,
    0x3d, 0x94, 0xa7, 0xda, 0x3d, 0x6e, 0xab, 0x10, 0x3e, 0x63, 0xd9, 0xfe, 0xbc,
    0x21, 0x19, 0x8f, 0x3e, 0xd8, 0x5c, 0xb6, 0xbd, 0x4f, 0xa5, 0x3f, 0x3e, 0x70,
    0xca, 0x84, 0x3d, 0x91, 0x17, 0x16, 0x3e, 0x43, 0xc9, 0x85, 0x3e, 0x5e, 0xeb,
    0x7f, 0x3e, 0x93, 0x81, 0x23, 0xbe, 0x24, 0xe0, 0x87, 0x3e, 0xb9, 0x51, 0xa2,
    0x3e, 0x45, 0xe1, 0x2e, 0x3d, 0xb7, 0x3e, 0x93, 0x3e, 0x25, 0xb6, 0xd9, 0x3d,
    0xff, 0x85, 0x67, 0xbe, 0x5d, 0xb5, 0x3d, 0x3e, 0x42, 0x83, 0xb0, 0xbd, 0xb2,
    0x2c, 0xd9, 0xbc, 0x55, 0x2f, 0x71, 0x3c, 0x82, 0xb1, 0x6a, 0xbc, 0x4f, 0xbb,
    0x60, 0xbe, 0x75, 0x70, 0x49, 0x3e, 0x3d, 0xc0, 0x04, 0x3e, 0x40, 0x43, 0x0e,
    0x3e, 0x0c, 0x26, 0x53, 0x3e, 0x4b, 0x68, 0xa9, 0xba, 0x42, 0x5a, 0xb3, 0xbb,
    0xbb, 0xe1, 0x3f, 0x3e, 0xda, 0x0f, 0x52, 0x3e, 0x3c, 0x3f, 0xb7, 0x3d, 0x56,
    0x92, 0xae, 0xbd, 0xbe, 0x45, 0x58, 0xbd, 0x48, 0x21, 0x0b, 0x3d, 0x1c, 0x35,
    0x78, 0x3e, 0x18, 0xb6, 0x41, 0xbd, 0x90, 0x34, 0x0b, 0xbe, 0xf5, 0x8e, 0x0a,
    0x3e, 0x1f, 0x93, 0x2c, 0x3e, 0xa1, 0x83, 0x91, 0xbc, 0xa9, 0x7f, 0xdb, 0xba,
    0xf7, 0x77, 0x03, 0xbe, 0xe4, 0x67, 0x32, 0xbd, 0xea, 0x05, 0x35, 0xbc, 0x7f,
    0xbe, 0x92, 0xbc, 0x82, 0xae, 0x41, 0x3e, 0xc9, 0x63, 0xb4, 0x3d, 0x2f, 0xa5,
    0xac, 0xbb, 0xdd, 0x25, 0xcf, 0x3d, 0x94, 0x77, 0x06, 0x3e, 0xb0, 0xea, 0x4d,
    0xbe, 0x95, 0xff, 0xa0, 0x3e, 0xcb, 0xc4, 0xa6, 0xbd, 0xd4, 0x4a, 0xfb, 0x3d,
    0x5f, 0x55, 0xbb, 0x3d, 0xbf, 0x74, 0x0f, 0x3e, 0x30, 0xdc, 0x9c, 0xbd, 0x2a,
    0x47, 0xcb, 0xbd, 0xc2, 0xb2, 0x65, 0x3d, 0x6f, 0x83, 0x48, 0x3e, 0x69, 0x5e,
    0x6f, 0x3e, 0x47, 0xfe, 0x43, 0x3d, 0x71, 0xe3, 0x13, 0xbe, 0xa6, 0x1b, 0x8b,
    0x3c, 0x25, 0xcf, 0x1e, 0x3b, 0xc2, 0xf7, 0xe4, 0xbd, 0x8d, 0xfa, 0x4c, 0x3d,
    0x42, 0xdb, 0x34, 0x3e, 0x8a, 0x58, 0x59, 0x3d, 0x60, 0x9f, 0xe1, 0x3d, 0x1b,
    0x16, 0x44, 0x3d, 0x67, 0xf5, 0x03, 0xbe, 0x6d, 0xc3, 0x87, 0x3e, 0x14, 0x80,
    0x45, 0x3e, 0xe9, 0x62, 0xa0, 0xbc, 0xce, 0xec, 0x99, 0x3c, 0xc0, 0x86, 0x37,
    0xbe, 0xdc, 0x39, 0xcf, 0x3d, 0x11, 0x0d, 0x1e, 0x3e, 0xed, 0xfa, 0x5d, 0xbd,
    0xd8, 0xdd, 0x5d, 0xbe, 0xd0, 0xf3, 0x5b, 0x3e, 0x05, 0xfe, 0xe1, 0x3c, 0xa5,
    0x6f, 0x8e, 0xbd, 0x7e, 0x72, 0x83, 0x3e, 0x9e, 0xa8, 0xac, 0xbd, 0xec, 0xa3,
    0x06, 0xbe, 0x57, 0x7e, 0x5d, 0x3e, 0x5c, 0xc6, 0x42, 0x3e, 0xb0, 0x29, 0x51,
    0xbe, 0xa8, 0xd9, 0x65, 0x3e, 0x2c, 0x74, 0x23, 0xbe, 0xae, 0x57, 0x33, 0xbe,
    0xb0, 0xcd, 0x47, 0x3e, 0x80, 0x1e, 0x00, 0x3e, 0x34, 0x98, 0x9f, 0x3d, 0x19,
    0x49, 0x0f, 0x3e, 0x02, 0x20, 0x59, 0xbd, 0xda, 0x74, 0x47, 0x3e, 0xd3, 0x6b,
    0x19, 0x3e, 0x40, 0x27, 0x55, 0x3e, 0x26, 0xd7, 0x01, 0x3e, 0x3d, 0xe5, 0xd3,
    0xbd, 0x31, 0xe6, 0x7c, 0xbc, 0x12, 0x62, 0x3a, 0x3e, 0x2d, 0x60, 0x70, 0x3e,
    0x96, 0xe1, 0xeb, 0xbc, 0x86, 0x88, 0x2e, 0x39, 0x2c, 0xcb, 0xa7, 0xbc, 0x8e,
    0x59, 0xcc, 0x3d, 0xe2, 0xb0, 0x34, 0xbe, 0xa5, 0xa9, 0xbf, 0x3c, 0xe5, 0x6e,
    0x2a, 0x3e, 0xa6, 0x2f, 0xdd, 0x3c, 0xc3, 0x67, 0x6d, 0xbd, 0x5f, 0x8d, 0xc2,
    0x3d, 0x88, 0x6d, 0xdf, 0x3d, 0x47, 0x7f, 0xcf, 0xbd, 0xd4, 0x58, 0x28, 0x3e,
    0x4f, 0xa5, 0x0f, 0xbe, 0x2c, 0xd5, 0x6b, 0x3e, 0x6e, 0x0e, 0x3d, 0x3e, 0xa5,
    0x77, 0xb2, 0x3d, 0x19, 0xac, 0x19, 0x3c, 0xc8, 0xa9, 0xd1, 0x3b, 0xee, 0x45,
    0x89, 0xbc, 0x89, 0x37, 0x4a, 0x3e, 0x9a, 0x53, 0x18, 0x3e, 0xc2, 0x34, 0x59,
    0xbe, 0xee, 0xcd, 0x98, 0x3e, 0x74, 0x79, 0xef, 0xbd, 0x79, 0x16, 0xe7, 0x3d,
    0x3e, 0x32, 0xe7, 0x3d, 0xb5, 0x77, 0x29, 0xbd, 0xf9, 0x4e, 0xfc, 0x3d, 0x57,
    0x38, 0xb8, 0xbd, 0xf4, 0xd0, 0x91, 0xbd, 0x60, 0x78, 0x0b, 0x3e, 0x38, 0x45,
    0xde, 0x3d, 0xa4, 0x7f, 0xe4, 0x3c, 0xb1, 0x93, 0xe3, 0x3d, 0x14, 0xe8, 0x74,
    0x3e, 0xbc, 0x7c, 0x55, 0x3e, 0x44, 0xa1, 0x4f, 0xbe, 0x94, 0xd3, 0xf6, 0x3d,
    0xae, 0x81, 0x66, 0x3e, 0xed, 0x0f, 0x25, 0xbd, 0xf1, 0xb4, 0x48, 0x3e, 0x86,
    0x03, 0xad, 0x3d, 0xd5, 0x5d, 0x1d, 0x3e, 0xd3, 0x48, 0x6c, 0x3e, 0xe6, 0x0f,
    0x43, 0x3d, 0x38, 0xcd, 0x97, 0x3d, 0x75, 0xe8, 0x9f, 0x3d, 0xe6, 0xb1, 0xf2,
    0x3d, 0x7b, 0x3d, 0xe3, 0x3d, 0x35, 0x76, 0xc3, 0xbd, 0x0a, 0xff, 0xff, 0xff,
    0x04, 0x00, 0x00, 0x00, 0x28, 0x00, 0x00, 0x00, 0x93, 0xc3, 0x22, 0x3d, 0x67,
    0xcd, 0x07, 0xbc, 0x00, 0x00, 0x00, 0x00, 0xdb, 0xc7, 0x61, 0xbc, 0x03, 0xf0,
    0x81, 0xbb, 0xb3, 0x11, 0x59, 0xbc, 0x00, 0x00, 0x00, 0x00, 0xb2, 0x96, 0xd9,
    0xbb, 0x55, 0x6c, 0x3b, 0x3d, 0x29, 0x1b, 0x63, 0x3d, 0x3e, 0xff, 0xff, 0xff,
    0x04, 0x00, 0x00, 0x00, 0x0c, 0x00, 0x00, 0x00, 0xe7, 0x36, 0x4d, 0x3d, 0xdc,
    0xe6, 0xcd, 0x3d, 0x11, 0x68, 0x4b, 0x3d, 0x56, 0xff, 0xff, 0xff, 0x04, 0x00,
    0x00, 0x00, 0x08, 0x00, 0x00, 0x00, 0xaf, 0xcb, 0x3a, 0xbc, 0xb3, 0xcb, 0x3a,
    0x3c, 0x40, 0xfa, 0xff, 0xff, 0x44, 0xfa, 0xff, 0xff, 0x0f, 0x00, 0x00, 0x00,
    0x4d, 0x4c, 0x49, 0x52, 0x20, 0x43, 0x6f, 0x6e, 0x76, 0x65, 0x72, 0x74, 0x65,
    0x64, 0x2e, 0x00, 0x01, 0x00, 0x00, 0x00, 0x14, 0x00, 0x00, 0x00, 0x00, 0x00,
    0x0e, 0x00, 0x18, 0x00, 0x14, 0x00, 0x10, 0x00, 0x0c, 0x00, 0x08, 0x00, 0x04,
    0x00, 0x0e, 0x00, 0x00, 0x00, 0x14, 0x00, 0x00, 0x00, 0x1c, 0x00, 0x00, 0x00,
    0x24, 0x01, 0x00, 0x00, 0x28, 0x01, 0x00, 0x00, 0x2c, 0x01, 0x00, 0x00, 0x04,
    0x00, 0x00, 0x00, 0x6d, 0x61, 0x69, 0x6e, 0x00, 0x00, 0x00, 0x00, 0x04, 0x00,
    0x00, 0x00, 0xcc, 0x00, 0x00, 0x00, 0x84, 0x00, 0x00, 0x00, 0x50, 0x00, 0x00,
    0x00, 0x14, 0x00, 0x00, 0x00, 0x00, 0x00, 0x0e, 0x00, 0x1a, 0x00, 0x14, 0x00,
    0x10, 0x00, 0x0c, 0x00, 0x0b, 0x00, 0x04, 0x00, 0x0e, 0x00, 0x00, 0x00, 0x1c,
    0x00, 0x00, 0x00, 0x00, 0x00, 0x00, 0x09, 0x1c, 0x00, 0x00, 0x00, 0x20, 0x00,
    0x00, 0x00, 0x01, 0x00, 0x00, 0x00, 0x00, 0x00, 0x06, 0x00, 0x08, 0x00, 0x04,
    0x00, 0x06, 0x00, 0x00, 0x00, 0x00, 0x00, 0x80, 0x3f, 0x01, 0x00, 0x00, 0x00,
    0x0a, 0x00, 0x00, 0x00, 0x01, 0x00, 0x00, 0x00, 0x09, 0x00, 0x00, 0x00, 0x9a,
    0xff, 0xff, 0xff, 0x10, 0x00, 0x00, 0x00, 0x00, 0x00, 0x00, 0x08, 0x0c, 0x00,
    0x00, 0x00, 0x10, 0x00, 0x00, 0x00, 0x08, 0xfb, 0xff, 0xff, 0x01, 0x00, 0x00,
    0x00, 0x09, 0x00, 0x00, 0x00, 0x03, 0x00, 0x00, 0x00, 0x08, 0x00, 0x00, 0x00,
    0x06, 0x00, 0x00, 0x00, 0x01, 0x00, 0x00, 0x00, 0xca, 0xff, 0xff, 0xff, 0x10,
    0x00, 0x00, 0x00, 0x00, 0x00, 0x00, 0x08, 0x10, 0x00, 0x00, 0x00, 0x14, 0x00,
    0x00, 0x00, 0xba, 0xff, 0xff, 0xff, 0x00, 0x00, 0x00, 0x01, 0x01, 0x00, 0x00,
    0x00, 0x08, 0x00, 0x00, 0x00, 0x03, 0x00, 0x00, 0x00, 0x07, 0x00, 0x00, 0x00,
    0x05, 0x00, 0x00, 0x00, 0x02, 0x00, 0x00, 0x00, 0x00, 0x00, 0x0e, 0x00, 0x16,
    0x00, 0x00, 0x00, 0x10, 0x00, 0x0c, 0x00, 0x0b, 0x00, 0x04, 0x00, 0x0e, 0x00,
    0x00, 0x00, 0x18, 0x00, 0x00, 0x00, 0x00, 0x00, 0x00, 0x08, 0x18, 0x00, 0x00,
    0x00, 0x1c, 0x00, 0x00, 0x00, 0x00, 0x00, 0x06, 0x00, 0x08, 0x00, 0x07, 0x00,
    0x06, 0x00, 0x00, 0x00, 0x00, 0x00, 0x00, 0x01, 0x01, 0x00, 0x00, 0x00, 0x07,
    0x00, 0x00, 0x00, 0x03, 0x00, 0x00, 0x00, 0x00, 0x00, 0x00, 0x00, 0x04, 0x00,
    0x00, 0x00, 0x03, 0x00, 0x00, 0x00, 0x01, 0x00, 0x00, 0x00, 0x0a, 0x00, 0x00,
    0x00, 0x01, 0x00, 0x00, 0x00, 0x00, 0x00, 0x00, 0x00, 0x0b, 0x00, 0x00, 0x00,
    0x20, 0x04, 0x00, 0x00, 0xb0, 0x03, 0x00, 0x00, 0x40, 0x03, 0x00, 0x00, 0xe8,
    0x02, 0x00, 0x00, 0x9c, 0x02, 0x00, 0x00, 0x50, 0x02, 0x00, 0x00, 0x04, 0x02,
    0x00, 0x00, 0x70, 0x01, 0x00, 0x00, 0xdc, 0x00, 0x00, 0x00, 0x60, 0x00, 0x00,
    0x00, 0x04, 0x00, 0x00, 0x00, 0x22, 0xfc, 0xff, 0xff, 0x00, 0x00, 0x00, 0x01,
    0x14, 0x00, 0x00, 0x00, 0x1c, 0x00, 0x00, 0x00, 0x1c, 0x00, 0x00, 0x00, 0x0b,
    0x00, 0x00, 0x00, 0x34, 0x00, 0x00, 0x00, 0x02, 0x00, 0x00, 0x00, 0xff, 0xff,
    0xff, 0xff, 0x02, 0x00, 0x00, 0x00, 0x0c, 0xfc, 0xff, 0xff, 0x19, 0x00, 0x00,
    0x00, 0x53, 0x74, 0x61, 0x74, 0x65, 0x66, 0x75, 0x6c, 0x50, 0x61, 0x72, 0x74,
    0x69, 0x74, 0x69, 0x6f, 0x6e, 0x65, 0x64, 0x43, 0x61, 0x6c, 0x6c, 0x3a, 0x30,
    0x00, 0x00, 0x00, 0x02, 0x00, 0x00, 0x00, 0x01, 0x00, 0x00, 0x00, 0x02, 0x00,
    0x00, 0x00, 0x7a, 0xfc, 0xff, 0xff, 0x00, 0x00, 0x00, 0x01, 0x14, 0x00, 0x00,
    0x00, 0x1c, 0x00, 0x00, 0x00, 0x1c, 0x00, 0x00, 0x00, 0x0a, 0x00, 0x00, 0x00,
    0x54, 0x00, 0x00, 0x00, 0x02, 0x00, 0x00, 0x00, 0xff, 0xff, 0xff, 0xff, 0x02,
    0x00, 0x00, 0x00, 0x64, 0xfc, 0xff, 0xff, 0x38, 0x00, 0x00, 0x00, 0x73, 0x65,
    0x71, 0x75, 0x65, 0x6e, 0x74, 0x69, 0x61, 0x6c, 0x5f, 0x32, 0x2f, 0x64, 0x65,
    0x6e, 0x73, 0x65, 0x5f, 0x38, 0x2f, 0x4d, 0x61, 0x74, 0x4d, 0x75, 0x6c, 0x3b,
    0x73, 0x65, 0x71, 0x75, 0x65, 0x6e, 0x74, 0x69, 0x61, 0x6c, 0x5f, 0x32, 0x2f,
    0x64, 0x65, 0x6e, 0x73, 0x65, 0x5f, 0x38, 0x2f, 0x42, 0x69, 0x61, 0x73, 0x41,
    0x64, 0x64, 0x00, 0x00, 0x00, 0x00, 0x02, 0x00, 0x00, 0x00, 0x01, 0x00, 0x00,
    0x00, 0x02, 0x00, 0x00, 0x00, 0xf2, 0xfc, 0xff, 0xff, 0x00, 0x00, 0x00, 0x01,
    0x14, 0x00, 0x00, 0x00, 0x1c, 0x00, 0x00, 0x00, 0x1c, 0x00, 0x00, 0x00, 0x09,
    0x00, 0x00, 0x00, 0x6c, 0x00, 0x00, 0x00, 0x02, 0x00, 0x00, 0x00, 0xff, 0xff,
    0xff, 0xff, 0x03, 0x00, 0x00, 0x00, 0xdc, 0xfc, 0xff, 0xff, 0x52, 0x00, 0x00,
    0x00, 0x73, 0x65, 0x71, 0x75, 0x65, 0x6e, 0x74, 0x69, 0x61, 0x6c, 0x5f, 0x32,
    0x2f, 0x64, 0x65, 0x6e, 0x73, 0x65, 0x5f, 0x37, 0x2f, 0x4d, 0x61, 0x74, 0x4d,
    0x75, 0x6c, 0x3b, 0x73, 0x65, 0x71, 0x75, 0x65, 0x6e, 0x74, 0x69, 0x61, 0x6c,
    0x5f, 0x32, 0x2f, 0x64, 0x65, 0x6e, 0x73, 0x65, 0x5f, 0x37, 0x2f, 0x52, 0x65,
    0x6c, 0x75, 0x3b, 0x73, 0x65, 0x71, 0x75, 0x65, 0x6e, 0x74, 0x69, 0x61, 0x6c,
    0x5f, 0x32, 0x2f, 0x64, 0x65, 0x6e, 0x73, 0x65, 0x5f, 0x37, 0x2f, 0x42, 0x69,
    0x61, 0x73, 0x41, 0x64, 0x64, 0x00, 0x00, 0x02, 0x00, 0x00, 0x00, 0x01, 0x00,
    0x00, 0x00, 0x03, 0x00, 0x00, 0x00, 0x82, 0xfd, 0xff, 0xff, 0x00, 0x00, 0x00,
    0x01, 0x14, 0x00, 0x00, 0x00, 0x1c, 0x00, 0x00, 0x00, 0x1c, 0x00, 0x00, 0x00,
    0x08, 0x00, 0x00, 0x00, 0x6c, 0x00, 0x00, 0x00, 0x02, 0x00, 0x00, 0x00, 0xff,
    0xff, 0xff, 0xff, 0x0a, 0x00, 0x00, 0x00, 0x6c, 0xfd, 0xff, 0xff, 0x52, 0x00,
    0x00, 0x00, 0x73, 0x65, 0x71, 0x75, 0x65, 0x6e, 0x74, 0x69, 0x61, 0x6c, 0x5f,
    0x32, 0x2f, 0x64, 0x65, 0x6e, 0x73, 0x65, 0x5f, 0x36, 0x2f, 0x4d, 0x61, 0x74,
    0x4d, 0x75, 0x6c, 0x3b, 0x73, 0x65, 0x71, 0x75, 0x65, 0x6e, 0x74, 0x69, 0x61,
    0x6c, 0x5f, 0x32, 0x2f, 0x64, 0x65, 0x6e, 0x73, 0x65, 0x5f, 0x36, 0x2f, 0x52,
    0x65, 0x6c, 0x75, 0x3b, 0x73, 0x65, 0x71, 0x75, 0x65, 0x6e, 0x74, 0x69, 0x61,
    0x6c, 0x5f, 0x32, 0x2f, 0x64, 0x65, 0x6e, 0x73, 0x65, 0x5f, 0x36, 0x2f, 0x42,
    0x69, 0x61, 0x73, 0x41, 0x64, 0x64, 0x00, 0x00, 0x02, 0x00, 0x00, 0x00, 0x01,
    0x00, 0x00, 0x00, 0x0a, 0x00, 0x00, 0x00, 0x7e, 0xfe, 0xff, 0xff, 0x00, 0x00,
    0x00, 0x01, 0x10, 0x00, 0x00, 0x00, 0x10, 0x00, 0x00, 0x00, 0x07, 0x00, 0x00,
    0x00, 0x28, 0x00, 0x00, 0x00, 0xec, 0xfd, 0xff, 0xff, 0x1b, 0x00, 0x00, 0x00,
    0x73, 0x65, 0x71, 0x75, 0x65, 0x6e, 0x74, 0x69, 0x61, 0x6c, 0x5f, 0x32, 0x2f,
    0x64, 0x65, 0x6e, 0x73, 0x65, 0x5f, 0x38, 0x2f, 0x4d, 0x61, 0x74, 0x4d, 0x75,
    0x6c, 0x00, 0x02, 0x00, 0x00, 0x00, 0x02, 0x00, 0x00, 0x00, 0x03, 0x00, 0x00,
    0x00, 0xc6, 0xfe, 0xff, 0xff, 0x00, 0x00, 0x00, 0x01, 0x10, 0x00, 0x00, 0x00,
    0x10, 0x00, 0x00, 0x00, 0x06, 0x00, 0x00, 0x00, 0x28, 0x00, 0x00, 0x00, 0x34,
    0xfe, 0xff, 0xff, 0x1b, 0x00, 0x00, 0x00, 0x73, 0x65, 0x71, 0x75, 0x65, 0x6e,
    0x74, 0x69, 0x61, 0x6c, 0x5f, 0x32, 0x2f, 0x64, 0x65, 0x6e, 0x73, 0x65, 0x5f,
    0x37, 0x2f, 0x4d, 0x61, 0x74, 0x4d, 0x75, 0x6c, 0x00, 0x02, 0x00, 0x00, 0x00,
    0x03, 0x00, 0x00, 0x00, 0x0a, 0x00, 0x00, 0x00, 0x0e, 0xff, 0xff, 0xff, 0x00,
    0x00, 0x00, 0x01, 0x10, 0x00, 0x00, 0x00, 0x10, 0x00, 0x00, 0x00, 0x05, 0x00,
    0x00, 0x00, 0x28, 0x00, 0x00, 0x00, 0x7c, 0xfe, 0xff, 0xff, 0x1b, 0x00, 0x00,
    0x00, 0x73, 0x65, 0x71, 0x75, 0x65, 0x6e, 0x74, 0x69, 0x61, 0x6c, 0x5f, 0x32,
    0x2f, 0x64, 0x65, 0x6e, 0x73, 0x65, 0x5f, 0x36, 0x2f, 0x4d, 0x61, 0x74, 0x4d,
    0x75, 0x6c, 0x00, 0x02, 0x00, 0x00, 0x00, 0x0a, 0x00, 0x00, 0x00, 0x78, 0x00,
    0x00, 0x00, 0x56, 0xff, 0xff, 0xff, 0x00, 0x00, 0x00, 0x01, 0x10, 0x00, 0x00,
    0x00, 0x10, 0x00, 0x00, 0x00, 0x04, 0x00, 0x00, 0x00, 0x38, 0x00, 0x00, 0x00,
    0xc4, 0xfe, 0xff, 0xff, 0x2b, 0x00, 0x00, 0x00, 0x73, 0x65, 0x71, 0x75, 0x65,
    0x6e, 0x74, 0x69, 0x61, 0x6c, 0x5f, 0x32, 0x2f, 0x64, 0x65, 0x6e, 0x73, 0x65,
    0x5f, 0x36, 0x2f, 0x42, 0x69, 0x61, 0x73, 0x41, 0x64, 0x64, 0x2f, 0x52, 0x65,
    0x61, 0x64, 0x56, 0x61, 0x72, 0x69, 0x61, 0x62, 0x6c, 0x65, 0x4f, 0x70, 0x00,
    0x01, 0x00, 0x00, 0x00, 0x0a, 0x00, 0x00, 0x00, 0xaa, 0xff, 0xff, 0xff, 0x00,
    0x00, 0x00, 0x01, 0x10, 0x00, 0x00, 0x00, 0x10, 0x00, 0x00, 0x00, 0x03, 0x00,
    0x00, 0x00, 0x38, 0x00, 0x00, 0x00, 0x18, 0xff, 0xff, 0xff, 0x2b, 0x00, 0x00,
    0x00, 0x73, 0x65, 0x71, 0x75, 0x65, 0x6e, 0x74, 0x69, 0x61, 0x6c, 0x5f, 0x32,
    0x2f, 0x64, 0x65, 0x6e, 0x73, 0x65, 0x5f, 0x37, 0x2f, 0x42, 0x69, 0x61, 0x73,
    0x41, 0x64, 0x64, 0x2f, 0x52, 0x65, 0x61, 0x64, 0x56, 0x61, 0x72, 0x69, 0x61,
    0x62, 0x6c, 0x65, 0x4f, 0x70, 0x00, 0x01, 0x00, 0x00, 0x00, 0x03, 0x00, 0x00,
    0x00, 0x00, 0x00, 0x16, 0x00, 0x18, 0x00, 0x14, 0x00, 0x00, 0x00, 0x10, 0x00,
    0x0c, 0x00, 0x08, 0x00, 0x00, 0x00, 0x00, 0x00, 0x00, 0x00, 0x07, 0x00, 0x16,
    0x00, 0x00, 0x00, 0x00, 0x00, 0x00, 0x01, 0x10, 0x00, 0x00, 0x00, 0x10, 0x00,
    0x00, 0x00, 0x02, 0x00, 0x00, 0x00, 0x38, 0x00, 0x00, 0x00, 0x84, 0xff, 0xff,
    0xff, 0x2b, 0x00, 0x00, 0x00, 0x73, 0x65, 0x71, 0x75, 0x65, 0x6e, 0x74, 0x69,
    0x61, 0x6c, 0x5f, 0x32, 0x2f, 0x64, 0x65, 0x6e, 0x73, 0x65, 0x5f, 0x38, 0x2f,
    0x42, 0x69, 0x61, 0x73, 0x41, 0x64, 0x64, 0x2f, 0x52, 0x65, 0x61, 0x64, 0x56,
    0x61, 0x72, 0x69, 0x61, 0x62, 0x6c, 0x65, 0x4f, 0x70, 0x00, 0x01, 0x00, 0x00,
    0x00, 0x02, 0x00, 0x00, 0x00, 0x00, 0x00, 0x16, 0x00, 0x1c, 0x00, 0x18, 0x00,
    0x00, 0x00, 0x14, 0x00, 0x10, 0x00, 0x0c, 0x00, 0x00, 0x00, 0x00, 0x00, 0x08,
    0x00, 0x07, 0x00, 0x16, 0x00, 0x00, 0x00, 0x00, 0x00, 0x00, 0x01, 0x14, 0x00,
    0x00, 0x00, 0x20, 0x00, 0x00, 0x00, 0x20, 0x00, 0x00, 0x00, 0x01, 0x00, 0x00,
    0x00, 0x3c, 0x00, 0x00, 0x00, 0x02, 0x00, 0x00, 0x00, 0xff, 0xff, 0xff, 0xff,
    0x78, 0x00, 0x00, 0x00, 0x04, 0x00, 0x04, 0x00, 0x04, 0x00, 0x00, 0x00, 0x1f,
    0x00, 0x00, 0x00, 0x73, 0x65, 0x72, 0x76, 0x69, 0x6e, 0x67, 0x5f, 0x64, 0x65,
    0x66, 0x61, 0x75, 0x6c, 0x74, 0x5f, 0x64, 0x65, 0x6e, 0x73, 0x65, 0x5f, 0x36,
    0x5f, 0x69, 0x6e, 0x70, 0x75, 0x74, 0x3a, 0x30, 0x00, 0x02, 0x00, 0x00, 0x00,
    0x01, 0x00, 0x00, 0x00, 0x78, 0x00, 0x00, 0x00, 0x02, 0x00, 0x00, 0x00, 0x20,
    0x00, 0x00, 0x00, 0x04, 0x00, 0x00, 0x00, 0xf4, 0xff, 0xff, 0xff, 0x19, 0x00,
    0x00, 0x00, 0x00, 0x00, 0x00, 0x19, 0x0c, 0x00, 0x0c, 0x00, 0x0b, 0x00, 0x00,
    0x00, 0x00, 0x00, 0x04, 0x00, 0x0c, 0x00, 0x00, 0x00, 0x09, 0x00, 0x00, 0x00,
    0x00, 0x00, 0x00, 0x09,
};
const int gesture_model_len = 7128;
